{
  "version": "1.0",
  "truncation": null,
  "padding": null,
  "added_tokens": [
    {
      "id": 0,
      "content": "<pad>",
      "single_word": false,
      "lstrip": false,
      "rstrip": false,
      "normalized": false,
      "special": true
    },
    {
      "id": 1,
      "content": "<unk>",
      "single_word": false,
      "lstrip": false,
      "rstrip": false,
      "normalized": false,
      "special": true
    },
    {
      "id": 2,
      "content": "<bos>",
      "single_word": false,
      "lstrip": false,
      "rstrip": false,
      "normalized": false,
      "special": true
    },
    {
      "id": 3,
      "content": "<eos>",
      "single_word": false,
      "lstrip": false,
      "rstrip": false,
      "normalized": false,
      "special": true
    }
  ],
  "normalizer": null,
  "pre_tokenizer": {
    "type": "ByteLevel",
    "add_prefix_space": true,
    "trim_offsets": true,
    "use_regex": true
  },
  "post_processor": null,
  "decoder": {
    "type": "ByteLevel",
    "add_prefix_space": true,
    "trim_offsets": true,
    "use_regex": true
  },
  "model": {
    "type": "BPE",
    "dropout": null,
    "unk_token": "<unk>",
    "continuing_subword_prefix": null,
    "end_of_word_suffix": null,
    "fuse_unk": false,
    "byte_fallback": false,
    "ignore_merges": false,
    "vocab": {
      "<pad>": 0,
      "<unk>": 1,
      "<bos>": 2,
      "<eos>": 3,
      "!": 4,
      "\"": 5,
      "#": 6,
      "$": 7,
      "%": 8,
      "&": 9,
      "'": 10,
      "(": 11,
      ")": 12,
      "*": 13,
      "+": 14,
      ",": 15,
      "-": 16,
      ".": 17,
      "/": 18,
      "0": 19,
      "1": 20,
      "2": 21,
      "3": 22,
      "4": 23,
      "5": 24,
      "6": 25,
      "7": 26,
      "8": 27,
      "9": 28,
      ":": 29,
      ";": 30,
      "<": 31,
      "=": 32,
      ">": 33,
      "?": 34,
      "@": 35,
      "A": 36,
      "B": 37,
      "C": 38,
      "D": 39,
      "E": 40,
      "F": 41,
      "G": 42,
      "H": 43,
      "I": 44,
      "J": 45,
      "K": 46,
      "L": 47,
      "M": 48,
      "N": 49,
      "O": 50,
      "P": 51,
      "Q": 52,
      "R": 53,
      "S": 54,
      "T": 55,
      "U": 56,
      "V": 57,
      "W": 58,
      "X": 59,
      "Y": 60,
      "Z": 61,
      "[": 62,
      "\\": 63,
      "]": 64,
      "^": 65,
      "_": 66,
      "`": 67,
      "a": 68,
      "b": 69,
      "c": 70,
      "d": 71,
      "e": 72,
      "f": 73,
      "g": 74,
      "h": 75,
      "i": 76,
      "j": 77,
      "k": 78,
      "l": 79,
      "m": 80,
      "n": 81,
      "o": 82,
      "p": 83,
      "q": 84,
      "r": 85,
      "s": 86,
      "t": 87,
      "u": 88,
      "v": 89,
      "w": 90,
      "x": 91,
      "y": 92,
      "z": 93,
      "{": 94,
      "|": 95,
      "}": 96,
      "~": 97,
      "¡": 98,
      "¢": 99,
      "£": 100,
      "¤": 101,
      "¥": 102,
      "¦": 103,
      "§": 104,
      "¨": 105,
      "©": 106,
      "ª": 107,
      "«": 108,
      "¬": 109,
      "®": 110,
      "¯": 111,
      "°": 112,
      "±": 113,
      "²": 114,
      "³": 115,
      "´": 116,
      "µ": 117,
      "¶": 118,
      "·": 119,
      "¸": 120,
      "¹": 121,
      "º": 122,
      "»": 123,
      "¼": 124,
      "½": 125,
      "¾": 126,
      "¿": 127,
      "À": 128,
      "Á": 129,
      "Â": 130,
      "Ã": 131,
      "Ä": 132,
      "Å": 133,
      "Æ": 134,
      "Ç": 135,
      "È": 136,
      "É": 137,
      "Ê": 138,
      "Ë": 139,
      "Ì": 140,
      "Í": 141,
      "Î": 142,
      "Ï": 143,
      "Ð": 144,
      "Ñ": 145,
      "Ò": 146,
      "Ó": 147,
      "Ô": 148,
      "Õ": 149,
      "Ö": 150,
      "×": 151,
      "Ø": 152,
      "Ù": 153,
      "Ú": 154,
      "Û": 155,
      "Ü": 156,
      "Ý": 157,
      "Þ": 158,
      "ß": 159,
      "à": 160,
      "á": 161,
      "â": 162,
      "ã": 163,
      "ä": 164,
      "å": 165,
      "æ": 166,
      "ç": 167,
      "è": 168,
      "é": 169,
      "ê": 170,
      "ë": 171,
      "ì": 172,
      "í": 173,
      "î": 174,
      "ï": 175,
      "ð": 176,
      "ñ": 177,
      "ò": 178,
      "ó": 179,
      "ô": 180,
      "õ": 181,
      "ö": 182,
      "÷": 183,
      "ø": 184,
      "ù": 185,
      "ú": 186,
      "û": 187,
      "ü": 188,
      "ý": 189,
      "þ": 190,
      "ÿ": 191,
      "Ā": 192,
      "ā": 193,
      "Ă": 194,
      "ă": 195,
      "Ą": 196,
      "ą": 197,
      "Ć": 198,
      "ć": 199,
      "Ĉ": 200,
      "ĉ": 201,
      "Ċ": 202,
      "ċ": 203,
      "Č": 204,
      "č": 205,
      "Ď": 206,
      "ď": 207,
      "Đ": 208,
      "đ": 209,
      "Ē": 210,
      "ē": 211,
      "Ĕ": 212,
      "ĕ": 213,
      "Ė": 214,
      "ė": 215,
      "Ę": 216,
      "ę": 217,
      "Ě": 218,
      "ě": 219,
      "Ĝ": 220,
      "ĝ": 221,
      "Ğ": 222,
      "ğ": 223,
      "Ġ": 224,
      "ġ": 225,
      "Ģ": 226,
      "ģ": 227,
      "Ĥ": 228,
      "ĥ": 229,
      "Ħ": 230,
      "ħ": 231,
      "Ĩ": 232,
      "ĩ": 233,
      "Ī": 234,
      "ī": 235,
      "Ĭ": 236,
      "ĭ": 237,
      "Į": 238,
      "į": 239,
      "İ": 240,
      "ı": 241,
      "Ĳ": 242,
      "ĳ": 243,
      "Ĵ": 244,
      "ĵ": 245,
      "Ķ": 246,
      "ķ": 247,
      "ĸ": 248,
      "Ĺ": 249,
      "ĺ": 250,
      "Ļ": 251,
      "ļ": 252,
      "Ľ": 253,
      "ľ": 254,
      "Ŀ": 255,
      "ŀ": 256,
      "Ł": 257,
      "ł": 258,
      "Ń": 259,
      "Ġe": 260,
      "Ġes": 261,
      "Ġa": 262,
      "os": 263,
      "ra": 264,
      "Ġc": 265,
      "la": 266,
      "Ġd": 267,
      "Ġp": 268,
      "en": 269,
      "or": 270,
      "er": 271,
      "Ġs": 272,
      "uÃ": 273,
      "Â¿": 274,
      "ĠÂ¿": 275,
      "es": 276,
      "ta": 277,
      "un": 278,
      "Ġel": 279,
      "Ġde": 280,
      "ue": 281,
      "Ġun": 282,
      "uÃ©": 283,
      "Ġq": 284,
      "Ġla": 285,
      "ma": 286,
      "ÃŃ": 287,
      "Ġy": 288,
      "ua": 289,
      "in": 290,
      "re": 291,
      "Ġm": 292,
      "Ġt": 293,
      "QuÃ©": 294,
      "ien": 295,
      "Ġque": 296,
      "Ġh": 297,
      "Ġl": 298,
      "on": 299,
      "Ġv": 300,
      "ar": 301,
      "as": 302,
      "Ġo": 303,
      "Ġf": 304,
      "ro": 305,
      "¡n": 306,
      "Ġen": 307,
      "Ġn": 308,
      "gua": 309,
      "ci": 310,
      "ol": 311,
      "to": 312,
      "Ġuna": 313,
      "is": 314,
      "Ġpor": 315,
      "iene": 316,
      "te": 317,
      "Ġg": 318,
      "Ġse": 319,
      "do": 320,
      "Ġtiene": 321,
      "CuÃ": 322,
      "Un": 323,
      "ier": 324,
      "tos": 325,
      "Ġi": 326,
      "tas": 327,
      "CuÃ¡n": 328,
      "El": 329,
      "Ġpa": 330,
      "de": 331,
      "da": 332,
      "lo": 333,
      "no": 334,
      "Ġdel": 335,
      "ch": 336,
      "Ã¡": 337,
      "Ã±": 338,
      "Ġal": 339,
      "Ġca": 340,
      "Ġsu": 341,
      "om": 342,
      "ri": 343,
      "ĠS": 344,
      "Ġcua": 345,
      "ĠmÃ¡": 346,
      "tro": 347,
      "Ã³": 348,
      "Ġai": 349,
      "Ġagua": 350,
      "ĠquÃ©": 351,
      "Ġha": 352,
      "Ġgra": 353,
      "La": 354,
      "ie": 355,
      "ira": 356,
      "res": 357,
      "ul": 358,
      "Ġcom": 359,
      "orma": 360,
      "ierra": 361,
      "Ġaire": 362,
      "Por": 363,
      "ni": 364,
      "vi": 365,
      "Ãº": 366,
      "Ġb": 367,
      "Ġcon": 368,
      "lan": 369,
      "Ġplan": 370,
      "Ġve": 371,
      "gual": 372,
      "Ġigual": 373,
      "Ġpara": 374,
      "ĠmÃ¡s": 375,
      "Tierra": 376,
      "ces": 377,
      "gen": 378,
      "Ġin": 379,
      "ĠTierra": 380,
      "ero": 381,
      "Ġlu": 382,
      "Ġforma": 383,
      "ĠSol": 384,
      "an": 385,
      "ce": 386,
      "dos": 387,
      "ic": 388,
      "mos": 389,
      "rÃŃ": 390,
      "uer": 391,
      "Ã¡n": 392,
      "Ġani": 393,
      "Ġpar": 394,
      "mal": 395,
      "Ġlos": 396,
      "CuÃ¡nto": 397,
      "geno": 398,
      "Ġanimal": 399,
      "tr": 400,
      "ve": 401,
      "Ġma": 402,
      "Ġres": 403,
      "Ġlas": 404,
      "Ġvi": 405,
      "Ġluz": 406,
      "be": 407,
      "co": 408,
      "ir": 409,
      "ita": 410,
      "men": 411,
      "pa": 412,
      "pira": 413,
      "tra": 414,
      "tes": 415,
      "tre": 416,
      "xÃŃ": 417,
      "Ã©": 418,
      "ĠP": 419,
      "Ġre": 420,
      "ĠaÃ±": 421,
      "ĠdÃŃ": 422,
      "ones": 423,
      "ĠoxÃŃ": 424,
      "Ġno": 425,
      "Ġcal": 426,
      "Ġcuatro": 427,
      "Ã³n": 428,
      "ielo": 429,
      "Ġcomo": 430,
      "Ġrespira": 431,
      "ĠoxÃŃgeno": 432,
      "eta": 433,
      "ig": 434,
      "ido": 435,
      "imen": 436,
      "ora": 437,
      "que": 438,
      "ues": 439,
      "Ġro": 440,
      "Ġll": 441,
      "CuÃ¡ntos": 442,
      "dad": 443,
      "Ġalimen": 444,
      "Ġgran": 445,
      "Ġplantas": 446,
      "rÃŃo": 447,
      "tros": 448,
      "ano": 449,
      "eces": 450,
      "ia": 451,
      "lla": 452,
      "po": 453,
      "qu": 454,
      "ura": 455,
      "vor": 456,
      "vier": 457,
      "za": 458,
      "zul": 459,
      "Ġ3": 460,
      "ĠL": 461,
      "Ġazul": 462,
      "Ġcos": 463,
      "Ġcol": 464,
      "Ġcuer": 465,
      "lar": 466,
      "Ġdi": 467,
      "Ġpro": 468,
      "erÃº": 469,
      "Ġso": 470,
      "tan": 471,
      "ÃŃf": 472,
      "ÃŃvor": 473,
      "iente": 474,
      "ciÃ³n": 475,
      "Ġporque": 476,
      "Ġgas": 477,
      "Ġseis": 478,
      "Una": 479,
      "Ġim": 480,
      "Ã±a": 481,
      "ĠPerÃº": 482,
      "ĠdÃŃa": 483,
      "Ġcolor": 484,
      "Ġcuerpo": 485,
      "Es": 486,
      "Los": 487,
      "ac": 488,
      "ba": 489,
      "bj": 490,
      "cu": 491,
      "eb": 492,
      "ec": 493,
      "eg": 494,
      "mero": 495,
      "mÃŃf": 496,
      "ndo": 497,
      "ntes": 498,
      "otos": 499,
      "ris": 500,
      "rco": 501,
      "sa": 502,
      "tic": 503,
      "Ġestre": 504,
      "Ġatra": 505,
      "Ġarco": 506,
      "rano": 507,
      "Ġcar": 508,
      "Ġdos": 509,
      "Ġdes": 510,
      "Ġsol": 511,
      "una": 512,
      "uede": 513,
      "ueve": 514,
      "ÃŃntes": 515,
      "ÃŃris": 516,
      "ina": 517,
      "inar": 518,
      "Ġto": 519,
      "iento": 520,
      "Ġquech": 521,
      "Ġhielo": 522,
      "Ġhora": 523,
      "Ġobj": 524,
      "Ġfuer": 525,
      "Ġfotos": 526,
      "ĠnÃº": 527,
      "CuÃ¡ntas": 528,
      "Ġpatas": 529,
      "che": 530,
      "cho": 531,
      "Ġcuando": 532,
      "Ġhace": 533,
      "vid": 534,
      "Ġvein": 535,
      "Ã¡ng": 536,
      "Ġparte": 537,
      "Ġanimales": 538,
      "ĠmamÃŃf": 539,
      "ĠaÃ±o": 540,
      "Ġalimenta": 541,
      "Ġgrande": 542,
      "ĠLuna": 543,
      "Ġcosas": 544,
      "Ġdivid": 545,
      "ÃŃvoro": 546,
      "Ġcolores": 547,
      "Ġestrella": 548,
      "ĠarcoÃŃris": 549,
      "ÃŃntesis": 550,
      "Ġquechua": 551,
      "Ġobje": 552,
      "ĠfotosÃŃntesis": 553,
      "ĠnÃºmero": 554,
      "ĠmamÃŃfero": 555,
      "En": 556,
      "Las": 557,
      "al": 558,
      "at": 559,
      "ay": 560,
      "bo": 561,
      "bra": 562,
      "bla": 563,
      "bre": 564,
      "cÃ©": 565,
      "dor": 566,
      "dar": 567,
      "fic": 568,
      "go": 569,
      "il": 570,
      "ja": 571,
      "mb": 572,
      "por": 573,
      "uy": 574,
      "uma": 575,
      "Ġ1": 576,
      "Ġ2": 577,
      "Ġ4": 578,
      "Ġ5": 579,
      "Ġ6": 580,
      "Ġ9": 581,
      "Ġu": 582,
      "Ġta": 583,
      "ĠrÃŃo": 584,
      "ĠEs": 585,
      "Ġex": 586,
      "Ġesta": 587,
      "Ġapa": 588,
      "ran": 589,
      "Ġcu": 590,
      "Ġcen": 591,
      "Ġcer": 592,
      "Ġcielo": 593,
      "lama": 594,
      "Ġdis": 595,
      "Ġper": 596,
      "Ġpuede": 597,
      "enos": 598,
      "erb": 599,
      "Ġser": 600,
      "Ġson": 601,
      "Ġsis": 602,
      "Ġsig": 603,
      "taÃ±a": 604,
      "Ġlados": 605,
      "inco": 606,
      "rede": 607,
      "Ġme": 608,
      "Ġmon": 609,
      "Ġmenos": 610,
      "Ġtres": 611,
      "Ġhier": 612,
      "Ġhuma": 613,
      "Ġherb": 614,
      "Ġle": 615,
      "Ġllama": 616,
      "Ġvol": 617,
      "Ġotros": 618,
      "Ġocho": 619,
      "ĠocÃ©": 620,
      "ĠfrÃŃo": 621,
      "Ġentre": 622,
      "Ġnues": 623,
      "Ġneces": 624,
      "ciones": 625,
      "tema": 626,
      "Ġgira": 627,
      "Ġalrede": 628,
      "Ġsus": 629,
      "Ġsube": 630,
      "ĠmÃ¡qu": 631,
      "Ġhay": 632,
      "Ġhabla": 633,
      "Ġgrave": 634,
      "iete": 635,
      "Ġcomen": 636,
      "Ġplaneta": 637,
      "Ġvemos": 638,
      "Ġverano": 639,
      "Ġiguales": 640,
      "Ġins": 641,
      "Ġinvier": 642,
      "Ġpartes": 643,
      "Ġcaliente": 644,
      "Ġrespirar": 645,
      "Ġlleg": 646,
      "Ġproces": 647,
      "Ġsolar": 648,
      "ebro": 649,
      "Ġatrae": 650,
      "Ġcarn": 651,
      "Ġfuerza": 652,
      "Ġveintic": 653,
      "Ġobjetos": 654,
      "Ġcerebro": 655,
      "Ġsistema": 656,
      "ĠmontaÃ±a": 657,
      "Ġhumano": 658,
      "ĠocÃ©ano": 659,
      "Ġalrededor": 660,
      "Ġgravedad": 661,
      "Ġinvierno": 662,
      "ab": 663,
      "au": 664,
      "ach": 665,
      "apor": 666,
      "ca": 667,
      "cos": 668,
      "cer": 669,
      "can": 670,
      "cÃ¡n": 671,
      "clar": 672,
      "dra": 673,
      "etas": 674,
      "elo": 675,
      "emos": 676,
      "fi": 677,
      "forma": 678,
      "frÃŃ": 679,
      "gano": 680,
      "ias": 681,
      "ite": 682,
      "idar": 683,
      "jo": 684,
      "lones": 685,
      "me": 686,
      "mo": 687,
      "mones": 688,
      "minar": 689,
      "miento": 690,
      "pu": 691,
      "per": 692,
      "puÃ©": 693,
      "par": 694,
      "pita": 695,
      "ren": 696,
      "rgano": 697,
      "son": 698,
      "san": 699,
      "ten": 700,
      "ter": 701,
      "tin": 702,
      "tis": 703,
      "tri": 704,
      "uin": 705,
      "utos": 706,
      "ulo": 707,
      "uvi": 708,
      "va": 709,
      "vos": 710,
      "ven": 711,
      "ver": 712,
      "zÃ³n": 713,
      "Ġ7": 714,
      "Ġ8": 715,
      "ĠM": 716,
      "ĠN": 717,
      "Ġor": 718,
      "ĠÃ³": 719,
      "ĠLa": 720,
      "ĠÃ¡ng": 721,
      "Ġara": 722,
      "osau": 723,
      "rar": 724,
      "Ġcero": 725,
      "Ġcora": 726,
      "lada": 727,
      "labra": 728,
      "Ġder": 729,
      "Ġdin": 730,
      "Ġpul": 731,
      "Ġpeces": 732,
      "Ġpelo": 733,
      "enta": 734,
      "engua": 735,
      "orme": 736,
      "erde": 737,
      "Ġsue": 738,
      "ĠsÃŃ": 739,
      "Ġsir": 740,
      "tado": 741,
      "taminar": 742,
      "undo": 743,
      "Ġelec": 744,
      "Ġquin": 745,
      "man": 746,
      "inta": 747,
      "inutos": 748,
      "reas": 749,
      "rece": 750,
      "reinta": 751,
      "Ġmo": 752,
      "Ġmita": 753,
      "Ġmeta": 754,
      "Ġmil": 755,
      "Ġmuy": 756,
      "Ġmundo": 757,
      "Ġminutos": 758,
      "Ġtri": 759,
      "Ġtierra": 760,
      "Ġtreinta": 761,
      "Ġhues": 762,
      "Ġlengua": 763,
      "Ġviene": 764,
      "Ġvac": 765,
      "Ġviento": 766,
      "Ġvapor": 767,
      "Ġverde": 768,
      "arcos": 769,
      "Ġoto": 770,
      "Ġotra": 771,
      "Ġflo": 772,
      "Ġfab": 773,
      "Ġenci": 774,
      "ĠenfrÃŃ": 775,
      "Ġenorme": 776,
      "Ġnos": 777,
      "Ġnueve": 778,
      "cia": 779,
      "cias": 780,
      "cidad": 781,
      "ciclar": 782,
      "Ġpalabra": 783,
      "dea": 784,
      "Ã±o": 785,
      "Ġcaen": 786,
      "Ġcamb": 787,
      "Ġcapita": 788,
      "rio": 789,
      "rite": 790,
      "ĠSe": 791,
      "Ġcuadra": 792,
      "Ã³geno": 793,
      "Ġhacer": 794,
      "Ġgrados": 795,
      "Ġgracias": 796,
      "ulos": 797,
      "Ġcompu": 798,
      "nific": 799,
      "vir": 800,
      "Ġbom": 801,
      "Ġbarcos": 802,
      "Ġcontaminar": 803,
      "Ġplanetas": 804,
      "Ġvivir": 805,
      "itamos": 806,
      "Ã©n": 807,
      "Ġrec": 808,
      "ĠaÃ±os": 809,
      "ĠdÃŃas": 810,
      "Ġnoche": 811,
      "Ġcalor": 812,
      "Ġcalien": 813,
      "Ġrespiran": 814,
      "iginar": 815,
      "Ġrobo": 816,
      "Ġrodea": 817,
      "Ġlluvi": 818,
      "Ġalimento": 819,
      "Ġ36": 820,
      "Ġsobre": 821,
      "Ġgases": 822,
      "ĠimÃ¡n": 823,
      "Ġimpar": 824,
      "ecto": 825,
      "Ġtodo": 826,
      "Ġtoman": 827,
      "Ġhoras": 828,
      "Ã¡ngulo": 829,
      "Ġdividir": 830,
      "Ġdividido": 831,
      "Ġ10": 832,
      "Ġtareas": 833,
      "Ġestaciones": 834,
      "Ġaparece": 835,
      "Ġcuidar": 836,
      "Ġcentro": 837,
      "Ġperson": 838,
      "Ġsonido": 839,
      "Ġsignific": 840,
      "Ġhierba": 841,
      "ĠherbÃŃvoro": 842,
      "Ġleche": 843,
      "Ġllamada": 844,
      "ĠvolcÃ¡n": 845,
      "Ġnuestros": 846,
      "Ġnecesitamos": 847,
      "ĠmÃ¡quina": 848,
      "Ġinsecto": 849,
      "Ġproceso": 850,
      "ĠcarnÃŃvoro": 851,
      "Ġveinticinco": 852,
      "achay": 853,
      "puÃ©s": 854,
      "tricidad": 855,
      "Ġoriginar": 856,
      "ĠÃ³rgano": 857,
      "ĠÃ¡ngulos": 858,
      "ĠaraÃ±a": 859,
      "ĠcorazÃ³n": 860,
      "Ġderrite": 861,
      "Ġdinosau": 862,
      "Ġpulmones": 863,
      "Ġsuelo": 864,
      "Ġsirven": 865,
      "tadora": 866,
      "Ġelectricidad": 867,
      "Ġquince": 868,
      "Ġmitad": 869,
      "Ġmetal": 870,
      "Ġmillones": 871,
      "ĠtriÃ¡ngulo": 872,
      "Ġhuesos": 873,
      "Ġvacas": 874,
      "ĠotoÃ±o": 875,
      "Ġotras": 876,
      "Ġflotan": 877,
      "Ġfabri": 878,
      "Ġencima": 879,
      "ĠenfrÃŃa": 880,
      "Ġcambia": 881,
      "Ġcapital": 882,
      "Ġcuadrado": 883,
      "Ġcomputadora": 884,
      "Ġrobot": 885,
      "Ġlluvia": 886,
      "Ġpersonas": 887,
      "Ġsignifica": 888,
      "An": 889,
      "Cien": 890,
      "CÃ³": 891,
      "Cinco": 892,
      "De": 893,
      "Dos": 894,
      "Des": 895,
      "Die": 896,
      "Gira": 897,
      "Hay": 898,
      "JÃº": 899,
      "Nueve": 900,
      "Pa": 901,
      "Re": 902,
      "Se": 903,
      "SÃŃ": 904,
      "Siete": 905,
      "Tres": 906,
      "Urano": 907,
      "Ven": 908,
      "Vemos": 909,
      "Yachay": 910,
      "ada": 911,
      "ados": 912,
      "amos": 913,
      "aja": 914,
      "aran": 915,
      "alada": 916,
      "bes": 917,
      "bon": 918,
      "bic": 919,
      "cl": 920,
      "cla": 921,
      "cien": 922,
      "car": 923,
      "cciones": 924,
      "di": 925,
      "dr": 926,
      "der": 927,
      "des": 928,
      "don": 929,
      "das": 930,
      "dul": 931,
      "dir": 932,
      "em": 933,
      "ep": 934,
      "era": 935,
      "eja": 936,
      "etis": 937,
      "eva": 938,
      "elada": 939,
      "fl": 940,
      "fin": 941,
      "gn": 942,
      "gra": 943,
      "gÃŃ": 944,
      "gre": 945,
      "gar": 946,
      "gÃº": 947,
      "gelada": 948,
      "hor": 949,
      "iu": 950,
      "ios": 951,
      "ior": 952,
      "ies": 953,
      "ima": 954,
      "itr": 955,
      "ibe": 956,
      "iza": 957,
      "iciÃ³n": 958,
      "iter": 959,
      "iÃ©n": 960,
      "idr": 961,
      "jos": 962,
      "lu": 963,
      "len": 964,
      "lor": 965,
      "lto": 966,
      "llo": 967,
      "lmen": 968,
      "luy": 969,
      "lite": 970,
      "mÃ¡": 971,
      "mina": 972,
      "mite": 973,
      "nt": 974,
      "nos": 975,
      "nte": 976,
      "oy": 977,
      "ola": 978,
      "oma": 979,
      "oci": 980,
      "otas": 981,
      "ocho": 982,
      "ofi": 983,
      "pla": 984,
      "pul": 985,
      "pues": 986,
      "pia": 987,
      "pren": 988,
      "pera": 989,
      "piter": 990,
      "rin": 991,
      "rno": 992,
      "riente": 993,
      "rgo": 994,
      "ses": 995,
      "sÃŃ": 996,
      "sar": 997,
      "sforma": 998,
      "tun": 999,
      "tÃ¡n": 1000,
      "tir": 1001,
      "tura": 1002,
      "us": 1003,
      "uto": 1004,
      "uda": 1005,
      "ubes": 1006,
      "ucciones": 1007,
      "urno": 1008,
      "vÃŃ": 1009,
      "van": 1010,
      "xido": 1011,
      "yos": 1012,
      "yuda": 1013,
      "zcla": 1014,
      "¡l": 1015,
      "Ġra": 1016,
      "ĠAn": 1017,
      "ĠGira": 1018,
      "ĠJÃº": 1019,
      "ĠUrano": 1020,
      "ĠVen": 1021,
      "Ġesa": 1022,
      "Ġeso": 1023,
      "Ġesen": 1024,
      "Ġespa": 1025,
      "Ġescu": 1026,
      "ĠestÃ¡n": 1027,
      "Ġaun": 1028,
      "Ġama": 1029,
      "Ġadul": 1030,
      "Ġahor": 1031,
      "Ġapren": 1032,
      "ĠasÃŃ": 1033,
      "Ġauto": 1034,
      "Ġayuda": 1035,
      "osten": 1036,
      "osiciÃ³n": 1037,
      "ratos": 1038,
      "Ġcor": 1039,
      "Ġcin": 1040,
      "ĠcrÃŃ": 1041,
      "Ġciu": 1042,
      "Ġclor": 1043,
      "las": 1044,
      "Ġda": 1045,
      "Ġdon": 1046,
      "Ġdie": 1047,
      "Ġdul": 1048,
      "Ġdura": 1049,
      "Ġpen": 1050,
      "Ġpes": 1051,
      "Ġpas": 1052,
      "Ġpri": 1053,
      "Ġpeg": 1054,
      "Ġprin": 1055,
      "ĠposiciÃ³n": 1056,
      "enemos": 1057,
      "entir": 1058,
      "ordar": 1059,
      "ercu": 1060,
      "erren": 1061,
      "ergÃŃ": 1062,
      "Ġses": 1063,
      "Ġsin": 1064,
      "Ġsan": 1065,
      "Ġsal": 1066,
      "Ġsat": 1067,
      "Ġsiete": 1068,
      "Ġsalada": 1069,
      "Ġsosten": 1070,
      "Ġsentir": 1071,
      "esa": 1072,
      "unci": 1073,
      "unca": 1074,
      "Ġeleva": 1075,
      "Ġellas": 1076,
      "Ġdebe": 1077,
      "Ġdeba": 1078,
      "uevos": 1079,
      "uelto": 1080,
      "Ġlago": 1081,
      "Ġlava": 1082,
      "Ġlargo": 1083,
      "mara": 1084,
      "mada": 1085,
      "magen": 1086,
      "mave": 1087,
      "ÃŃdos": 1088,
      "ÃŃqu": 1089,
      "ÃŃses": 1090,
      "Ġyachay": 1091,
      "uatro": 1092,
      "inas": 1093,
      "Ġmis": 1094,
      "Ġmira": 1095,
      "Ġtran": 1096,
      "Ġtem": 1097,
      "Ġtenemos": 1098,
      "Ġterren": 1099,
      "Ġhas": 1100,
      "Ġhidr": 1101,
      "Ġhoy": 1102,
      "Ġlibe": 1103,
      "ĠlÃŃqu": 1104,
      "onar": 1105,
      "Ġvar": 1106,
      "arte": 1107,
      "aria": 1108,
      "ases": 1109,
      "asura": 1110,
      "Ġotro": 1111,
      "Ġocu": 1112,
      "Ġojos": 1113,
      "Ġopues": 1114,
      "ĠoÃŃdos": 1115,
      "Ġfig": 1116,
      "Ġfluy": 1117,
      "Ġfunci": 1118,
      "Ġfases": 1119,
      "Ġentra": 1120,
      "ĠenvÃŃ": 1121,
      "ĠenergÃŃ": 1122,
      "Ġnat": 1123,
      "Ġnaran": 1124,
      "Ġnitr": 1125,
      "Ġnubes": 1126,
      "Ġnunca": 1127,
      "Ġnuevos": 1128,
      "cie": 1129,
      "cibe": 1130,
      "cipa": 1131,
      "cial": 1132,
      "ciocho": 1133,
      "oleta": 1134,
      "olver": 1135,
      "isies": 1136,
      "Ġgotas": 1137,
      "Ġsean": 1138,
      "Ġsepa": 1139,
      "ĠsegÃº": 1140,
      "CuÃ¡l": 1141,
      "Ġidi": 1142,
      "Ġilu": 1143,
      "Ġimagen": 1144,
      "ĠpaÃŃses": 1145,
      "chamos": 1146,
      "Ã±ol": 1147,
      "Ġalgo": 1148,
      "Ġcae": 1149,
      "Ġcada": 1150,
      "Ġsufic": 1151,
      "Ġsuper": 1152,
      "rios": 1153,
      "rilla": 1154,
      "rillo": 1155,
      "ĠSon": 1156,
      "ĠSat": 1157,
      "Ġcual": 1158,
      "trola": 1159,
      "Ã³xido": 1160,
      "Ġaimara": 1161,
      "Ġhacia": 1162,
      "vimiento": 1163,
      "viÃ©n": 1164,
      "viesa": 1165,
      "Ġbeb": 1166,
      "Ġbal": 1167,
      "Ġbran": 1168,
      "Ġbola": 1169,
      "Ġbasura": 1170,
      "Ġbisies": 1171,
      "Ġbrilla": 1172,
      "Ġconvier": 1173,
      "Ġcongelada": 1174,
      "Ġconoci": 1175,
      "Ġcontrola": 1176,
      "Ġveces": 1177,
      "Ġinforma": 1178,
      "Ġinter": 1179,
      "Ġincl": 1180,
      "Ġinfin": 1181,
      "Ġluces": 1182,
      "Ġlugar": 1183,
      "Ġformado": 1184,
      "dose": 1185,
      "ico": 1186,
      "trucciones": 1187,
      "Ġmar": 1188,
      "Ġmasa": 1189,
      "Ġmagn": 1190,
      "Ġmant": 1191,
      "Ġresolver": 1192,
      "Ġvida": 1193,
      "Ġvivier": 1194,
      "Ġvibra": 1195,
      "Ġvivos": 1196,
      "Ġviaja": 1197,
      "Ġvioleta": 1198,
      "bea": 1199,
      "Ã©s": 1200,
      "Ã©lite": 1201,
      "ĠPac": 1202,
      "ĠPuede": 1203,
      "Ġrebo": 1204,
      "Ġreciclar": 1205,
      "Ġredon": 1206,
      "Ġrefl": 1207,
      "Ġrecibe": 1208,
      "ĠaÃ±il": 1209,
      "Ġroca": 1210,
      "Ġrojo": 1211,
      "Ġllueve": 1212,
      "quias": 1213,
      "ural": 1214,
      "ĠLima": 1215,
      "Ġcosta": 1216,
      "ĠdiÃ³xido": 1217,
      "Ġprogra": 1218,
      "Ġpropia": 1219,
      "tante": 1220,
      "tancia": 1221,
      "ÃŃfico": 1222,
      "ÃŃvoros": 1223,
      "Ġimpor": 1224,
      "actas": 1225,
      "cuenta": 1226,
      "tica": 1227,
      "Ġatraviesa": 1228,
      "Ġcarbon": 1229,
      "Ġdoscien": 1230,
      "Ġdesde": 1231,
      "Ġdescan": 1232,
      "ĠdespuÃ©s": 1233,
      "Ġdespla": 1234,
      "Ġsolo": 1235,
      "inados": 1236,
      "Ġfueron": 1237,
      "Ġveintis": 1238,
      "Ġobjeto": 1239,
      "mbiÃ©n": 1240,
      "Ġ50": 1241,
      "Ġusa": 1242,
      "Ġusan": 1243,
      "Ġubic": 1244,
      "ĠtambiÃ©n": 1245,
      "ĠEse": 1246,
      "ĠEso": 1247,
      "Ġextin": 1248,
      "Ġexpul": 1249,
      "Ġexactas": 1250,
      "ĠestaciÃ³n": 1251,
      "Ġaparatos": 1252,
      "Ġcubre": 1253,
      "Ġceniza": 1254,
      "Ġdisper": 1255,
      "Ġdistin": 1256,
      "Ġdisuelto": 1257,
      "Ġpermite": 1258,
      "Ġseres": 1259,
      "Ġsigue": 1260,
      "Ġmetros": 1261,
      "Ġmedir": 1262,
      "Ġmezcla": 1263,
      "Ġhierro": 1264,
      "ĠherbÃŃvoros": 1265,
      "Ġlevan": 1266,
      "Ġllamado": 1267,
      "ĠvolviÃ©n": 1268,
      "Ġnuestro": 1269,
      "Ġnecesaria": 1270,
      "Ġsustancia": 1271,
      "ĠmÃ¡quinas": 1272,
      "Ġhablada": 1273,
      "Ġinstrucciones": 1274,
      "Ġllega": 1275,
      "Ġllegar": 1276,
      "Ġllegan": 1277,
      "Ġprocesa": 1278,
      "Ġcarne": 1279,
      "Ġveinticuatro": 1280,
      "ficie": 1281,
      "vernos": 1282,
      "ĠMercu": 1283,
      "ĠMarte": 1284,
      "ĠNos": 1285,
      "ĠNep": 1286,
      "rarla": 1287,
      "Ġmovimiento": 1288,
      "Ġmovernos": 1289,
      "Ġlenguas": 1290,
      "Ġbomba": 1291,
      "Ġbombea": 1292,
      "Ġcontaminarla": 1293,
      "Ġrectos": 1294,
      "Ġrecordar": 1295,
      "Ġcalienta": 1296,
      "Ġcalientan": 1297,
      "Ġ365": 1298,
      "Ġ366": 1299,
      "Ġ100": 1300,
      "Ġoriginaria": 1301,
      "Ġoriginarias": 1302,
      "Ġdinosaurio": 1303,
      "Ġdinosaurios": 1304,
      "Ġmetales": 1305,
      "Ġfabrican": 1306,
      "Ġfabricar": 1307,
      "CÃ³mo": 1308,
      "DespuÃ©s": 1309,
      "Diez": 1310,
      "Para": 1311,
      "Reciclar": 1312,
      "Seis": 1313,
      "etismo": 1314,
      "lena": 1315,
      "lmente": 1316,
      "mÃ¡tica": 1317,
      "minadas": 1318,
      "ofila": 1319,
      "peratura": 1320,
      "sformar": 1321,
      "tuno": 1322,
      "Ġrayos": 1323,
      "ĠAndes": 1324,
      "ĠJÃºpiter": 1325,
      "ĠVenus": 1326,
      "Ġesencial": 1327,
      "ĠespaÃ±ol": 1328,
      "Ġescuchamos": 1329,
      "Ġaunque": 1330,
      "Ġamarillo": 1331,
      "Ġadulto": 1332,
      "Ġahorrarla": 1333,
      "Ġaprender": 1334,
      "ĠautomÃ¡tica": 1335,
      "Ġcorriente": 1336,
      "Ġcincuenta": 1337,
      "ĠcrÃŃas": 1338,
      "Ġciudad": 1339,
      "Ġclorofila": 1340,
      "Ġdonde": 1341,
      "Ġdieciocho": 1342,
      "Ġdulce": 1343,
      "Ġdurante": 1344,
      "Ġpensar": 1345,
      "Ġpeso": 1346,
      "Ġpasto": 1347,
      "Ġprimave": 1348,
      "Ġpegados": 1349,
      "Ġprincipa": 1350,
      "Ġsesenta": 1351,
      "Ġsangre": 1352,
      "Ġsalir": 1353,
      "ĠsatÃ©lite": 1354,
      "Ġsostener": 1355,
      "ĠelevaciÃ³n": 1356,
      "Ġdebemos": 1357,
      "Ġdebajo": 1358,
      "Ġmisma": 1359,
      "Ġtransformar": 1360,
      "Ġtemperatura": 1361,
      "Ġterreno": 1362,
      "Ġhasta": 1363,
      "ĠhidrÃ³geno": 1364,
      "Ġliberar": 1365,
      "ĠlÃŃquido": 1366,
      "Ġvarios": 1367,
      "Ġocupa": 1368,
      "Ġopuesta": 1369,
      "Ġfigura": 1370,
      "Ġfluye": 1371,
      "Ġfuncionar": 1372,
      "ĠenvÃŃan": 1373,
      "ĠenergÃŃa": 1374,
      "Ġnatural": 1375,
      "Ġnaranja": 1376,
      "ĠnitrÃ³geno": 1377,
      "Ġsepara": 1378,
      "ĠsegÃºn": 1379,
      "Ġidioma": 1380,
      "Ġiluminadas": 1381,
      "Ġsuficiente": 1382,
      "Ġsuperficie": 1383,
      "ĠSaturno": 1384,
      "ĠbebÃ©s": 1385,
      "Ġballena": 1386,
      "Ġbranquias": 1387,
      "Ġbisiesto": 1388,
      "Ġconvierten": 1389,
      "Ġconocimiento": 1390,
      "ĠinformaciÃ³n": 1391,
      "Ġinterior": 1392,
      "Ġinclinados": 1393,
      "Ġinfinita": 1394,
      "Ġmagnetismo": 1395,
      "Ġmantiene": 1396,
      "Ġvivieron": 1397,
      "ĠvibraciÃ³n": 1398,
      "ĠPacÃŃfico": 1399,
      "Ġrebota": 1400,
      "Ġredondo": 1401,
      "Ġrefleja": 1402,
      "Ġprogramada": 1403,
      "Ġimportante": 1404,
      "Ġcarbono": 1405,
      "Ġdoscientos": 1406,
      "Ġdescansa": 1407,
      "Ġdesplaza": 1408,
      "Ġveintisiete": 1409,
      "Ġubicada": 1410,
      "Ġextintos": 1411,
      "Ġexpulsan": 1412,
      "Ġdispersa": 1413,
      "Ġdistintas": 1414,
      "Ġlevanta": 1415,
      "ĠvolviÃ©ndose": 1416,
      "ĠMercurio": 1417,
      "ĠNeptuno": 1418,
      "Ġprimavera": 1419,
      "Ġprincipalmente": 1420
    },
    "merges": [
      [
        "Ġ",
        "e"
      ],
      [
        "Ġe",
        "s"
      ],
      [
        "Ġ",
        "a"
      ],
      [
        "o",
        "s"
      ],
      [
        "r",
        "a"
      ],
      [
        "Ġ",
        "c"
      ],
      [
        "l",
        "a"
      ],
      [
        "Ġ",
        "d"
      ],
      [
        "Ġ",
        "p"
      ],
      [
        "e",
        "n"
      ],
      [
        "o",
        "r"
      ],
      [
        "e",
        "r"
      ],
      [
        "Ġ",
        "s"
      ],
      [
        "u",
        "Ã"
      ],
      [
        "Â",
        "¿"
      ],
      [
        "Ġ",
        "Â¿"
      ],
      [
        "e",
        "s"
      ],
      [
        "t",
        "a"
      ],
      [
        "u",
        "n"
      ],
      [
        "Ġe",
        "l"
      ],
      [
        "Ġd",
        "e"
      ],
      [
        "u",
        "e"
      ],
      [
        "Ġ",
        "un"
      ],
      [
        "uÃ",
        "©"
      ],
      [
        "Ġ",
        "q"
      ],
      [
        "Ġ",
        "la"
      ],
      [
        "m",
        "a"
      ],
      [
        "Ã",
        "Ń"
      ],
      [
        "Ġ",
        "y"
      ],
      [
        "u",
        "a"
      ],
      [
        "i",
        "n"
      ],
      [
        "r",
        "e"
      ],
      [
        "Ġ",
        "m"
      ],
      [
        "Ġ",
        "t"
      ],
      [
        "Q",
        "uÃ©"
      ],
      [
        "i",
        "en"
      ],
      [
        "Ġq",
        "ue"
      ],
      [
        "Ġ",
        "h"
      ],
      [
        "Ġ",
        "l"
      ],
      [
        "o",
        "n"
      ],
      [
        "Ġ",
        "v"
      ],
      [
        "a",
        "r"
      ],
      [
        "a",
        "s"
      ],
      [
        "Ġ",
        "o"
      ],
      [
        "Ġ",
        "f"
      ],
      [
        "r",
        "o"
      ],
      [
        "¡",
        "n"
      ],
      [
        "Ġe",
        "n"
      ],
      [
        "Ġ",
        "n"
      ],
      [
        "g",
        "ua"
      ],
      [
        "c",
        "i"
      ],
      [
        "o",
        "l"
      ],
      [
        "t",
        "o"
      ],
      [
        "Ġun",
        "a"
      ],
      [
        "i",
        "s"
      ],
      [
        "Ġp",
        "or"
      ],
      [
        "ien",
        "e"
      ],
      [
        "t",
        "e"
      ],
      [
        "Ġ",
        "g"
      ],
      [
        "Ġs",
        "e"
      ],
      [
        "d",
        "o"
      ],
      [
        "Ġt",
        "iene"
      ],
      [
        "C",
        "uÃ"
      ],
      [
        "U",
        "n"
      ],
      [
        "i",
        "er"
      ],
      [
        "t",
        "os"
      ],
      [
        "Ġ",
        "i"
      ],
      [
        "ta",
        "s"
      ],
      [
        "CuÃ",
        "¡n"
      ],
      [
        "E",
        "l"
      ],
      [
        "Ġp",
        "a"
      ],
      [
        "d",
        "e"
      ],
      [
        "d",
        "a"
      ],
      [
        "l",
        "o"
      ],
      [
        "n",
        "o"
      ],
      [
        "Ġde",
        "l"
      ],
      [
        "c",
        "h"
      ],
      [
        "Ã",
        "¡"
      ],
      [
        "Ã",
        "±"
      ],
      [
        "Ġa",
        "l"
      ],
      [
        "Ġc",
        "a"
      ],
      [
        "Ġs",
        "u"
      ],
      [
        "o",
        "m"
      ],
      [
        "r",
        "i"
      ],
      [
        "Ġ",
        "S"
      ],
      [
        "Ġc",
        "ua"
      ],
      [
        "Ġm",
        "Ã¡"
      ],
      [
        "t",
        "ro"
      ],
      [
        "Ã",
        "³"
      ],
      [
        "Ġa",
        "i"
      ],
      [
        "Ġa",
        "gua"
      ],
      [
        "Ġq",
        "uÃ©"
      ],
      [
        "Ġh",
        "a"
      ],
      [
        "Ġg",
        "ra"
      ],
      [
        "L",
        "a"
      ],
      [
        "i",
        "e"
      ],
      [
        "i",
        "ra"
      ],
      [
        "r",
        "es"
      ],
      [
        "u",
        "l"
      ],
      [
        "Ġc",
        "om"
      ],
      [
        "or",
        "ma"
      ],
      [
        "ier",
        "ra"
      ],
      [
        "Ġai",
        "re"
      ],
      [
        "P",
        "or"
      ],
      [
        "n",
        "i"
      ],
      [
        "v",
        "i"
      ],
      [
        "Ã",
        "º"
      ],
      [
        "Ġ",
        "b"
      ],
      [
        "Ġc",
        "on"
      ],
      [
        "la",
        "n"
      ],
      [
        "Ġp",
        "lan"
      ],
      [
        "Ġv",
        "e"
      ],
      [
        "gua",
        "l"
      ],
      [
        "Ġi",
        "gual"
      ],
      [
        "Ġpa",
        "ra"
      ],
      [
        "ĠmÃ¡",
        "s"
      ],
      [
        "T",
        "ierra"
      ],
      [
        "c",
        "es"
      ],
      [
        "g",
        "en"
      ],
      [
        "Ġ",
        "in"
      ],
      [
        "Ġ",
        "Tierra"
      ],
      [
        "er",
        "o"
      ],
      [
        "Ġl",
        "u"
      ],
      [
        "Ġf",
        "orma"
      ],
      [
        "ĠS",
        "ol"
      ],
      [
        "a",
        "n"
      ],
      [
        "c",
        "e"
      ],
      [
        "d",
        "os"
      ],
      [
        "i",
        "c"
      ],
      [
        "m",
        "os"
      ],
      [
        "r",
        "ÃŃ"
      ],
      [
        "u",
        "er"
      ],
      [
        "Ã",
        "¡n"
      ],
      [
        "Ġa",
        "ni"
      ],
      [
        "Ġp",
        "ar"
      ],
      [
        "ma",
        "l"
      ],
      [
        "Ġl",
        "os"
      ],
      [
        "CuÃ¡n",
        "to"
      ],
      [
        "gen",
        "o"
      ],
      [
        "Ġani",
        "mal"
      ],
      [
        "t",
        "r"
      ],
      [
        "v",
        "e"
      ],
      [
        "Ġ",
        "ma"
      ],
      [
        "Ġ",
        "res"
      ],
      [
        "Ġla",
        "s"
      ],
      [
        "Ġv",
        "i"
      ],
      [
        "Ġlu",
        "z"
      ],
      [
        "b",
        "e"
      ],
      [
        "c",
        "o"
      ],
      [
        "i",
        "r"
      ],
      [
        "i",
        "ta"
      ],
      [
        "m",
        "en"
      ],
      [
        "p",
        "a"
      ],
      [
        "p",
        "ira"
      ],
      [
        "t",
        "ra"
      ],
      [
        "t",
        "es"
      ],
      [
        "t",
        "re"
      ],
      [
        "x",
        "ÃŃ"
      ],
      [
        "Ã",
        "©"
      ],
      [
        "Ġ",
        "P"
      ],
      [
        "Ġ",
        "re"
      ],
      [
        "Ġa",
        "Ã±"
      ],
      [
        "Ġd",
        "ÃŃ"
      ],
      [
        "on",
        "es"
      ],
      [
        "Ġo",
        "xÃŃ"
      ],
      [
        "Ġn",
        "o"
      ],
      [
        "Ġca",
        "l"
      ],
      [
        "Ġcua",
        "tro"
      ],
      [
        "Ã³",
        "n"
      ],
      [
        "ie",
        "lo"
      ],
      [
        "Ġcom",
        "o"
      ],
      [
        "Ġres",
        "pira"
      ],
      [
        "ĠoxÃŃ",
        "geno"
      ],
      [
        "e",
        "ta"
      ],
      [
        "i",
        "g"
      ],
      [
        "i",
        "do"
      ],
      [
        "i",
        "men"
      ],
      [
        "o",
        "ra"
      ],
      [
        "q",
        "ue"
      ],
      [
        "u",
        "es"
      ],
      [
        "Ġ",
        "ro"
      ],
      [
        "Ġl",
        "l"
      ],
      [
        "CuÃ¡n",
        "tos"
      ],
      [
        "da",
        "d"
      ],
      [
        "Ġal",
        "imen"
      ],
      [
        "Ġgra",
        "n"
      ],
      [
        "Ġplan",
        "tas"
      ],
      [
        "rÃŃ",
        "o"
      ],
      [
        "tr",
        "os"
      ],
      [
        "a",
        "no"
      ],
      [
        "e",
        "ces"
      ],
      [
        "i",
        "a"
      ],
      [
        "l",
        "la"
      ],
      [
        "p",
        "o"
      ],
      [
        "q",
        "u"
      ],
      [
        "u",
        "ra"
      ],
      [
        "v",
        "or"
      ],
      [
        "v",
        "ier"
      ],
      [
        "z",
        "a"
      ],
      [
        "z",
        "ul"
      ],
      [
        "Ġ",
        "3"
      ],
      [
        "Ġ",
        "L"
      ],
      [
        "Ġa",
        "zul"
      ],
      [
        "Ġc",
        "os"
      ],
      [
        "Ġc",
        "ol"
      ],
      [
        "Ġc",
        "uer"
      ],
      [
        "la",
        "r"
      ],
      [
        "Ġd",
        "i"
      ],
      [
        "Ġp",
        "ro"
      ],
      [
        "er",
        "Ãº"
      ],
      [
        "Ġs",
        "o"
      ],
      [
        "ta",
        "n"
      ],
      [
        "ÃŃ",
        "f"
      ],
      [
        "ÃŃ",
        "vor"
      ],
      [
        "ien",
        "te"
      ],
      [
        "ci",
        "Ã³n"
      ],
      [
        "Ġpor",
        "que"
      ],
      [
        "Ġg",
        "as"
      ],
      [
        "Ġse",
        "is"
      ],
      [
        "Un",
        "a"
      ],
      [
        "Ġi",
        "m"
      ],
      [
        "Ã±",
        "a"
      ],
      [
        "ĠP",
        "erÃº"
      ],
      [
        "ĠdÃŃ",
        "a"
      ],
      [
        "Ġcol",
        "or"
      ],
      [
        "Ġcuer",
        "po"
      ],
      [
        "E",
        "s"
      ],
      [
        "L",
        "os"
      ],
      [
        "a",
        "c"
      ],
      [
        "b",
        "a"
      ],
      [
        "b",
        "j"
      ],
      [
        "c",
        "u"
      ],
      [
        "e",
        "b"
      ],
      [
        "e",
        "c"
      ],
      [
        "e",
        "g"
      ],
      [
        "m",
        "ero"
      ],
      [
        "m",
        "ÃŃf"
      ],
      [
        "n",
        "do"
      ],
      [
        "n",
        "tes"
      ],
      [
        "o",
        "tos"
      ],
      [
        "r",
        "is"
      ],
      [
        "r",
        "co"
      ],
      [
        "s",
        "a"
      ],
      [
        "t",
        "ic"
      ],
      [
        "Ġes",
        "tre"
      ],
      [
        "Ġa",
        "tra"
      ],
      [
        "Ġa",
        "rco"
      ],
      [
        "ra",
        "no"
      ],
      [
        "Ġc",
        "ar"
      ],
      [
        "Ġd",
        "os"
      ],
      [
        "Ġd",
        "es"
      ],
      [
        "Ġs",
        "ol"
      ],
      [
        "un",
        "a"
      ],
      [
        "ue",
        "de"
      ],
      [
        "ue",
        "ve"
      ],
      [
        "ÃŃ",
        "ntes"
      ],
      [
        "ÃŃ",
        "ris"
      ],
      [
        "in",
        "a"
      ],
      [
        "in",
        "ar"
      ],
      [
        "Ġt",
        "o"
      ],
      [
        "ien",
        "to"
      ],
      [
        "Ġque",
        "ch"
      ],
      [
        "Ġh",
        "ielo"
      ],
      [
        "Ġh",
        "ora"
      ],
      [
        "Ġo",
        "bj"
      ],
      [
        "Ġf",
        "uer"
      ],
      [
        "Ġf",
        "otos"
      ],
      [
        "Ġn",
        "Ãº"
      ],
      [
        "CuÃ¡n",
        "tas"
      ],
      [
        "Ġpa",
        "tas"
      ],
      [
        "ch",
        "e"
      ],
      [
        "ch",
        "o"
      ],
      [
        "Ġcua",
        "ndo"
      ],
      [
        "Ġha",
        "ce"
      ],
      [
        "vi",
        "d"
      ],
      [
        "Ġve",
        "in"
      ],
      [
        "Ã¡n",
        "g"
      ],
      [
        "Ġpar",
        "te"
      ],
      [
        "Ġanimal",
        "es"
      ],
      [
        "Ġma",
        "mÃŃf"
      ],
      [
        "ĠaÃ±",
        "o"
      ],
      [
        "Ġalimen",
        "ta"
      ],
      [
        "Ġgran",
        "de"
      ],
      [
        "ĠL",
        "una"
      ],
      [
        "Ġcos",
        "as"
      ],
      [
        "Ġdi",
        "vid"
      ],
      [
        "ÃŃvor",
        "o"
      ],
      [
        "Ġcolor",
        "es"
      ],
      [
        "Ġestre",
        "lla"
      ],
      [
        "Ġarco",
        "ÃŃris"
      ],
      [
        "ÃŃntes",
        "is"
      ],
      [
        "Ġquech",
        "ua"
      ],
      [
        "Ġobj",
        "e"
      ],
      [
        "Ġfotos",
        "ÃŃntesis"
      ],
      [
        "ĠnÃº",
        "mero"
      ],
      [
        "ĠmamÃŃf",
        "ero"
      ],
      [
        "E",
        "n"
      ],
      [
        "L",
        "as"
      ],
      [
        "a",
        "l"
      ],
      [
        "a",
        "t"
      ],
      [
        "a",
        "y"
      ],
      [
        "b",
        "o"
      ],
      [
        "b",
        "ra"
      ],
      [
        "b",
        "la"
      ],
      [
        "b",
        "re"
      ],
      [
        "c",
        "Ã©"
      ],
      [
        "d",
        "or"
      ],
      [
        "d",
        "ar"
      ],
      [
        "f",
        "ic"
      ],
      [
        "g",
        "o"
      ],
      [
        "i",
        "l"
      ],
      [
        "j",
        "a"
      ],
      [
        "m",
        "b"
      ],
      [
        "p",
        "or"
      ],
      [
        "u",
        "y"
      ],
      [
        "u",
        "ma"
      ],
      [
        "Ġ",
        "1"
      ],
      [
        "Ġ",
        "2"
      ],
      [
        "Ġ",
        "4"
      ],
      [
        "Ġ",
        "5"
      ],
      [
        "Ġ",
        "6"
      ],
      [
        "Ġ",
        "9"
      ],
      [
        "Ġ",
        "u"
      ],
      [
        "Ġ",
        "ta"
      ],
      [
        "Ġ",
        "rÃŃo"
      ],
      [
        "Ġ",
        "Es"
      ],
      [
        "Ġe",
        "x"
      ],
      [
        "Ġes",
        "ta"
      ],
      [
        "Ġa",
        "pa"
      ],
      [
        "ra",
        "n"
      ],
      [
        "Ġc",
        "u"
      ],
      [
        "Ġc",
        "en"
      ],
      [
        "Ġc",
        "er"
      ],
      [
        "Ġc",
        "ielo"
      ],
      [
        "la",
        "ma"
      ],
      [
        "Ġd",
        "is"
      ],
      [
        "Ġp",
        "er"
      ],
      [
        "Ġp",
        "uede"
      ],
      [
        "en",
        "os"
      ],
      [
        "er",
        "b"
      ],
      [
        "Ġs",
        "er"
      ],
      [
        "Ġs",
        "on"
      ],
      [
        "Ġs",
        "is"
      ],
      [
        "Ġs",
        "ig"
      ],
      [
        "ta",
        "Ã±a"
      ],
      [
        "Ġla",
        "dos"
      ],
      [
        "in",
        "co"
      ],
      [
        "re",
        "de"
      ],
      [
        "Ġm",
        "e"
      ],
      [
        "Ġm",
        "on"
      ],
      [
        "Ġm",
        "enos"
      ],
      [
        "Ġt",
        "res"
      ],
      [
        "Ġh",
        "ier"
      ],
      [
        "Ġh",
        "uma"
      ],
      [
        "Ġh",
        "erb"
      ],
      [
        "Ġl",
        "e"
      ],
      [
        "Ġl",
        "lama"
      ],
      [
        "Ġv",
        "ol"
      ],
      [
        "Ġo",
        "tros"
      ],
      [
        "Ġo",
        "cho"
      ],
      [
        "Ġo",
        "cÃ©"
      ],
      [
        "Ġf",
        "rÃŃo"
      ],
      [
        "Ġen",
        "tre"
      ],
      [
        "Ġn",
        "ues"
      ],
      [
        "Ġn",
        "eces"
      ],
      [
        "ci",
        "ones"
      ],
      [
        "te",
        "ma"
      ],
      [
        "Ġg",
        "ira"
      ],
      [
        "Ġal",
        "rede"
      ],
      [
        "Ġsu",
        "s"
      ],
      [
        "Ġsu",
        "be"
      ],
      [
        "ĠmÃ¡",
        "qu"
      ],
      [
        "Ġha",
        "y"
      ],
      [
        "Ġha",
        "bla"
      ],
      [
        "Ġgra",
        "ve"
      ],
      [
        "ie",
        "te"
      ],
      [
        "Ġcom",
        "en"
      ],
      [
        "Ġplan",
        "eta"
      ],
      [
        "Ġve",
        "mos"
      ],
      [
        "Ġve",
        "rano"
      ],
      [
        "Ġigual",
        "es"
      ],
      [
        "Ġin",
        "s"
      ],
      [
        "Ġin",
        "vier"
      ],
      [
        "Ġpar",
        "tes"
      ],
      [
        "Ġcal",
        "iente"
      ],
      [
        "Ġrespira",
        "r"
      ],
      [
        "Ġll",
        "eg"
      ],
      [
        "Ġpro",
        "ces"
      ],
      [
        "Ġso",
        "lar"
      ],
      [
        "eb",
        "ro"
      ],
      [
        "Ġatra",
        "e"
      ],
      [
        "Ġcar",
        "n"
      ],
      [
        "Ġfuer",
        "za"
      ],
      [
        "Ġvein",
        "tic"
      ],
      [
        "Ġobje",
        "tos"
      ],
      [
        "Ġcer",
        "ebro"
      ],
      [
        "Ġsis",
        "tema"
      ],
      [
        "Ġmon",
        "taÃ±a"
      ],
      [
        "Ġhuma",
        "no"
      ],
      [
        "ĠocÃ©",
        "ano"
      ],
      [
        "Ġalrede",
        "dor"
      ],
      [
        "Ġgrave",
        "dad"
      ],
      [
        "Ġinvier",
        "no"
      ],
      [
        "a",
        "b"
      ],
      [
        "a",
        "u"
      ],
      [
        "a",
        "ch"
      ],
      [
        "a",
        "por"
      ],
      [
        "c",
        "a"
      ],
      [
        "c",
        "os"
      ],
      [
        "c",
        "er"
      ],
      [
        "c",
        "an"
      ],
      [
        "c",
        "Ã¡n"
      ],
      [
        "c",
        "lar"
      ],
      [
        "d",
        "ra"
      ],
      [
        "e",
        "tas"
      ],
      [
        "e",
        "lo"
      ],
      [
        "e",
        "mos"
      ],
      [
        "f",
        "i"
      ],
      [
        "f",
        "orma"
      ],
      [
        "f",
        "rÃŃ"
      ],
      [
        "g",
        "ano"
      ],
      [
        "i",
        "as"
      ],
      [
        "i",
        "te"
      ],
      [
        "i",
        "dar"
      ],
      [
        "j",
        "o"
      ],
      [
        "l",
        "ones"
      ],
      [
        "m",
        "e"
      ],
      [
        "m",
        "o"
      ],
      [
        "m",
        "ones"
      ],
      [
        "m",
        "inar"
      ],
      [
        "m",
        "iento"
      ],
      [
        "p",
        "u"
      ],
      [
        "p",
        "er"
      ],
      [
        "p",
        "uÃ©"
      ],
      [
        "p",
        "ar"
      ],
      [
        "p",
        "ita"
      ],
      [
        "r",
        "en"
      ],
      [
        "r",
        "gano"
      ],
      [
        "s",
        "on"
      ],
      [
        "s",
        "an"
      ],
      [
        "t",
        "en"
      ],
      [
        "t",
        "er"
      ],
      [
        "t",
        "in"
      ],
      [
        "t",
        "is"
      ],
      [
        "t",
        "ri"
      ],
      [
        "u",
        "in"
      ],
      [
        "u",
        "tos"
      ],
      [
        "u",
        "lo"
      ],
      [
        "u",
        "vi"
      ],
      [
        "v",
        "a"
      ],
      [
        "v",
        "os"
      ],
      [
        "v",
        "en"
      ],
      [
        "v",
        "er"
      ],
      [
        "z",
        "Ã³n"
      ],
      [
        "Ġ",
        "7"
      ],
      [
        "Ġ",
        "8"
      ],
      [
        "Ġ",
        "M"
      ],
      [
        "Ġ",
        "N"
      ],
      [
        "Ġ",
        "or"
      ],
      [
        "Ġ",
        "Ã³"
      ],
      [
        "Ġ",
        "La"
      ],
      [
        "Ġ",
        "Ã¡ng"
      ],
      [
        "Ġa",
        "ra"
      ],
      [
        "os",
        "au"
      ],
      [
        "ra",
        "r"
      ],
      [
        "Ġc",
        "ero"
      ],
      [
        "Ġc",
        "ora"
      ],
      [
        "la",
        "da"
      ],
      [
        "la",
        "bra"
      ],
      [
        "Ġd",
        "er"
      ],
      [
        "Ġd",
        "in"
      ],
      [
        "Ġp",
        "ul"
      ],
      [
        "Ġp",
        "eces"
      ],
      [
        "Ġp",
        "elo"
      ],
      [
        "en",
        "ta"
      ],
      [
        "en",
        "gua"
      ],
      [
        "or",
        "me"
      ],
      [
        "er",
        "de"
      ],
      [
        "Ġs",
        "ue"
      ],
      [
        "Ġs",
        "ÃŃ"
      ],
      [
        "Ġs",
        "ir"
      ],
      [
        "ta",
        "do"
      ],
      [
        "ta",
        "minar"
      ],
      [
        "un",
        "do"
      ],
      [
        "Ġel",
        "ec"
      ],
      [
        "Ġq",
        "uin"
      ],
      [
        "ma",
        "n"
      ],
      [
        "in",
        "ta"
      ],
      [
        "in",
        "utos"
      ],
      [
        "re",
        "as"
      ],
      [
        "re",
        "ce"
      ],
      [
        "re",
        "inta"
      ],
      [
        "Ġm",
        "o"
      ],
      [
        "Ġm",
        "ita"
      ],
      [
        "Ġm",
        "eta"
      ],
      [
        "Ġm",
        "il"
      ],
      [
        "Ġm",
        "uy"
      ],
      [
        "Ġm",
        "undo"
      ],
      [
        "Ġm",
        "inutos"
      ],
      [
        "Ġt",
        "ri"
      ],
      [
        "Ġt",
        "ierra"
      ],
      [
        "Ġt",
        "reinta"
      ],
      [
        "Ġh",
        "ues"
      ],
      [
        "Ġl",
        "engua"
      ],
      [
        "Ġv",
        "iene"
      ],
      [
        "Ġv",
        "ac"
      ],
      [
        "Ġv",
        "iento"
      ],
      [
        "Ġv",
        "apor"
      ],
      [
        "Ġv",
        "erde"
      ],
      [
        "ar",
        "cos"
      ],
      [
        "Ġo",
        "to"
      ],
      [
        "Ġo",
        "tra"
      ],
      [
        "Ġf",
        "lo"
      ],
      [
        "Ġf",
        "ab"
      ],
      [
        "Ġen",
        "ci"
      ],
      [
        "Ġen",
        "frÃŃ"
      ],
      [
        "Ġen",
        "orme"
      ],
      [
        "Ġn",
        "os"
      ],
      [
        "Ġn",
        "ueve"
      ],
      [
        "ci",
        "a"
      ],
      [
        "ci",
        "as"
      ],
      [
        "ci",
        "dad"
      ],
      [
        "ci",
        "clar"
      ],
      [
        "Ġpa",
        "labra"
      ],
      [
        "de",
        "a"
      ],
      [
        "Ã±",
        "o"
      ],
      [
        "Ġca",
        "en"
      ],
      [
        "Ġca",
        "mb"
      ],
      [
        "Ġca",
        "pita"
      ],
      [
        "ri",
        "o"
      ],
      [
        "ri",
        "te"
      ],
      [
        "ĠS",
        "e"
      ],
      [
        "Ġcua",
        "dra"
      ],
      [
        "Ã³",
        "geno"
      ],
      [
        "Ġha",
        "cer"
      ],
      [
        "Ġgra",
        "dos"
      ],
      [
        "Ġgra",
        "cias"
      ],
      [
        "ul",
        "os"
      ],
      [
        "Ġcom",
        "pu"
      ],
      [
        "ni",
        "fic"
      ],
      [
        "vi",
        "r"
      ],
      [
        "Ġb",
        "om"
      ],
      [
        "Ġb",
        "arcos"
      ],
      [
        "Ġcon",
        "taminar"
      ],
      [
        "Ġplan",
        "etas"
      ],
      [
        "Ġvi",
        "vir"
      ],
      [
        "ita",
        "mos"
      ],
      [
        "Ã©",
        "n"
      ],
      [
        "Ġre",
        "c"
      ],
      [
        "ĠaÃ±",
        "os"
      ],
      [
        "ĠdÃŃ",
        "as"
      ],
      [
        "Ġno",
        "che"
      ],
      [
        "Ġcal",
        "or"
      ],
      [
        "Ġcal",
        "ien"
      ],
      [
        "Ġrespira",
        "n"
      ],
      [
        "ig",
        "inar"
      ],
      [
        "Ġro",
        "bo"
      ],
      [
        "Ġro",
        "dea"
      ],
      [
        "Ġll",
        "uvi"
      ],
      [
        "Ġalimen",
        "to"
      ],
      [
        "Ġ3",
        "6"
      ],
      [
        "Ġso",
        "bre"
      ],
      [
        "Ġgas",
        "es"
      ],
      [
        "Ġim",
        "Ã¡n"
      ],
      [
        "Ġim",
        "par"
      ],
      [
        "ec",
        "to"
      ],
      [
        "Ġto",
        "do"
      ],
      [
        "Ġto",
        "man"
      ],
      [
        "Ġhora",
        "s"
      ],
      [
        "Ã¡ng",
        "ulo"
      ],
      [
        "Ġdivid",
        "ir"
      ],
      [
        "Ġdivid",
        "ido"
      ],
      [
        "Ġ1",
        "0"
      ],
      [
        "Ġta",
        "reas"
      ],
      [
        "Ġesta",
        "ciones"
      ],
      [
        "Ġapa",
        "rece"
      ],
      [
        "Ġcu",
        "idar"
      ],
      [
        "Ġcen",
        "tro"
      ],
      [
        "Ġper",
        "son"
      ],
      [
        "Ġson",
        "ido"
      ],
      [
        "Ġsig",
        "nific"
      ],
      [
        "Ġhier",
        "ba"
      ],
      [
        "Ġherb",
        "ÃŃvoro"
      ],
      [
        "Ġle",
        "che"
      ],
      [
        "Ġllama",
        "da"
      ],
      [
        "Ġvol",
        "cÃ¡n"
      ],
      [
        "Ġnues",
        "tros"
      ],
      [
        "Ġneces",
        "itamos"
      ],
      [
        "ĠmÃ¡qu",
        "ina"
      ],
      [
        "Ġins",
        "ecto"
      ],
      [
        "Ġproces",
        "o"
      ],
      [
        "Ġcarn",
        "ÃŃvoro"
      ],
      [
        "Ġveintic",
        "inco"
      ],
      [
        "ach",
        "ay"
      ],
      [
        "puÃ©",
        "s"
      ],
      [
        "tri",
        "cidad"
      ],
      [
        "Ġor",
        "iginar"
      ],
      [
        "ĠÃ³",
        "rgano"
      ],
      [
        "ĠÃ¡ng",
        "ulos"
      ],
      [
        "Ġara",
        "Ã±a"
      ],
      [
        "Ġcora",
        "zÃ³n"
      ],
      [
        "Ġder",
        "rite"
      ],
      [
        "Ġdin",
        "osau"
      ],
      [
        "Ġpul",
        "mones"
      ],
      [
        "Ġsue",
        "lo"
      ],
      [
        "Ġsir",
        "ven"
      ],
      [
        "tado",
        "ra"
      ],
      [
        "Ġelec",
        "tricidad"
      ],
      [
        "Ġquin",
        "ce"
      ],
      [
        "Ġmita",
        "d"
      ],
      [
        "Ġmeta",
        "l"
      ],
      [
        "Ġmil",
        "lones"
      ],
      [
        "Ġtri",
        "Ã¡ngulo"
      ],
      [
        "Ġhues",
        "os"
      ],
      [
        "Ġvac",
        "as"
      ],
      [
        "Ġoto",
        "Ã±o"
      ],
      [
        "Ġotra",
        "s"
      ],
      [
        "Ġflo",
        "tan"
      ],
      [
        "Ġfab",
        "ri"
      ],
      [
        "Ġenci",
        "ma"
      ],
      [
        "ĠenfrÃŃ",
        "a"
      ],
      [
        "Ġcamb",
        "ia"
      ],
      [
        "Ġcapita",
        "l"
      ],
      [
        "Ġcuadra",
        "do"
      ],
      [
        "Ġcompu",
        "tadora"
      ],
      [
        "Ġrobo",
        "t"
      ],
      [
        "Ġlluvi",
        "a"
      ],
      [
        "Ġperson",
        "as"
      ],
      [
        "Ġsignific",
        "a"
      ],
      [
        "A",
        "n"
      ],
      [
        "C",
        "ien"
      ],
      [
        "C",
        "Ã³"
      ],
      [
        "C",
        "inco"
      ],
      [
        "D",
        "e"
      ],
      [
        "D",
        "os"
      ],
      [
        "D",
        "es"
      ],
      [
        "D",
        "ie"
      ],
      [
        "G",
        "ira"
      ],
      [
        "H",
        "ay"
      ],
      [
        "J",
        "Ãº"
      ],
      [
        "N",
        "ueve"
      ],
      [
        "P",
        "a"
      ],
      [
        "R",
        "e"
      ],
      [
        "S",
        "e"
      ],
      [
        "S",
        "ÃŃ"
      ],
      [
        "S",
        "iete"
      ],
      [
        "T",
        "res"
      ],
      [
        "U",
        "rano"
      ],
      [
        "V",
        "en"
      ],
      [
        "V",
        "emos"
      ],
      [
        "Y",
        "achay"
      ],
      [
        "a",
        "da"
      ],
      [
        "a",
        "dos"
      ],
      [
        "a",
        "mos"
      ],
      [
        "a",
        "ja"
      ],
      [
        "a",
        "ran"
      ],
      [
        "a",
        "lada"
      ],
      [
        "b",
        "es"
      ],
      [
        "b",
        "on"
      ],
      [
        "b",
        "ic"
      ],
      [
        "c",
        "l"
      ],
      [
        "c",
        "la"
      ],
      [
        "c",
        "ien"
      ],
      [
        "c",
        "ar"
      ],
      [
        "c",
        "ciones"
      ],
      [
        "d",
        "i"
      ],
      [
        "d",
        "r"
      ],
      [
        "d",
        "er"
      ],
      [
        "d",
        "es"
      ],
      [
        "d",
        "on"
      ],
      [
        "d",
        "as"
      ],
      [
        "d",
        "ul"
      ],
      [
        "d",
        "ir"
      ],
      [
        "e",
        "m"
      ],
      [
        "e",
        "p"
      ],
      [
        "e",
        "ra"
      ],
      [
        "e",
        "ja"
      ],
      [
        "e",
        "tis"
      ],
      [
        "e",
        "va"
      ],
      [
        "e",
        "lada"
      ],
      [
        "f",
        "l"
      ],
      [
        "f",
        "in"
      ],
      [
        "g",
        "n"
      ],
      [
        "g",
        "ra"
      ],
      [
        "g",
        "ÃŃ"
      ],
      [
        "g",
        "re"
      ],
      [
        "g",
        "ar"
      ],
      [
        "g",
        "Ãº"
      ],
      [
        "g",
        "elada"
      ],
      [
        "h",
        "or"
      ],
      [
        "i",
        "u"
      ],
      [
        "i",
        "os"
      ],
      [
        "i",
        "or"
      ],
      [
        "i",
        "es"
      ],
      [
        "i",
        "ma"
      ],
      [
        "i",
        "tr"
      ],
      [
        "i",
        "be"
      ],
      [
        "i",
        "za"
      ],
      [
        "i",
        "ciÃ³n"
      ],
      [
        "i",
        "ter"
      ],
      [
        "i",
        "Ã©n"
      ],
      [
        "i",
        "dr"
      ],
      [
        "j",
        "os"
      ],
      [
        "l",
        "u"
      ],
      [
        "l",
        "en"
      ],
      [
        "l",
        "or"
      ],
      [
        "l",
        "to"
      ],
      [
        "l",
        "lo"
      ],
      [
        "l",
        "men"
      ],
      [
        "l",
        "uy"
      ],
      [
        "l",
        "ite"
      ],
      [
        "m",
        "Ã¡"
      ],
      [
        "m",
        "ina"
      ],
      [
        "m",
        "ite"
      ],
      [
        "n",
        "t"
      ],
      [
        "n",
        "os"
      ],
      [
        "n",
        "te"
      ],
      [
        "o",
        "y"
      ],
      [
        "o",
        "la"
      ],
      [
        "o",
        "ma"
      ],
      [
        "o",
        "ci"
      ],
      [
        "o",
        "tas"
      ],
      [
        "o",
        "cho"
      ],
      [
        "o",
        "fi"
      ],
      [
        "p",
        "la"
      ],
      [
        "p",
        "ul"
      ],
      [
        "p",
        "ues"
      ],
      [
        "p",
        "ia"
      ],
      [
        "p",
        "ren"
      ],
      [
        "p",
        "era"
      ],
      [
        "p",
        "iter"
      ],
      [
        "r",
        "in"
      ],
      [
        "r",
        "no"
      ],
      [
        "r",
        "iente"
      ],
      [
        "r",
        "go"
      ],
      [
        "s",
        "es"
      ],
      [
        "s",
        "ÃŃ"
      ],
      [
        "s",
        "ar"
      ],
      [
        "s",
        "forma"
      ],
      [
        "t",
        "un"
      ],
      [
        "t",
        "Ã¡n"
      ],
      [
        "t",
        "ir"
      ],
      [
        "t",
        "ura"
      ],
      [
        "u",
        "s"
      ],
      [
        "u",
        "to"
      ],
      [
        "u",
        "da"
      ],
      [
        "u",
        "bes"
      ],
      [
        "u",
        "cciones"
      ],
      [
        "u",
        "rno"
      ],
      [
        "v",
        "ÃŃ"
      ],
      [
        "v",
        "an"
      ],
      [
        "x",
        "ido"
      ],
      [
        "y",
        "os"
      ],
      [
        "y",
        "uda"
      ],
      [
        "z",
        "cla"
      ],
      [
        "¡",
        "l"
      ],
      [
        "Ġ",
        "ra"
      ],
      [
        "Ġ",
        "An"
      ],
      [
        "Ġ",
        "Gira"
      ],
      [
        "Ġ",
        "JÃº"
      ],
      [
        "Ġ",
        "Urano"
      ],
      [
        "Ġ",
        "Ven"
      ],
      [
        "Ġes",
        "a"
      ],
      [
        "Ġes",
        "o"
      ],
      [
        "Ġes",
        "en"
      ],
      [
        "Ġes",
        "pa"
      ],
      [
        "Ġes",
        "cu"
      ],
      [
        "Ġes",
        "tÃ¡n"
      ],
      [
        "Ġa",
        "un"
      ],
      [
        "Ġa",
        "ma"
      ],
      [
        "Ġa",
        "dul"
      ],
      [
        "Ġa",
        "hor"
      ],
      [
        "Ġa",
        "pren"
      ],
      [
        "Ġa",
        "sÃŃ"
      ],
      [
        "Ġa",
        "uto"
      ],
      [
        "Ġa",
        "yuda"
      ],
      [
        "os",
        "ten"
      ],
      [
        "os",
        "iciÃ³n"
      ],
      [
        "ra",
        "tos"
      ],
      [
        "Ġc",
        "or"
      ],
      [
        "Ġc",
        "in"
      ],
      [
        "Ġc",
        "rÃŃ"
      ],
      [
        "Ġc",
        "iu"
      ],
      [
        "Ġc",
        "lor"
      ],
      [
        "la",
        "s"
      ],
      [
        "Ġd",
        "a"
      ],
      [
        "Ġd",
        "on"
      ],
      [
        "Ġd",
        "ie"
      ],
      [
        "Ġd",
        "ul"
      ],
      [
        "Ġd",
        "ura"
      ],
      [
        "Ġp",
        "en"
      ],
      [
        "Ġp",
        "es"
      ],
      [
        "Ġp",
        "as"
      ],
      [
        "Ġp",
        "ri"
      ],
      [
        "Ġp",
        "eg"
      ],
      [
        "Ġp",
        "rin"
      ],
      [
        "Ġp",
        "osiciÃ³n"
      ],
      [
        "en",
        "emos"
      ],
      [
        "en",
        "tir"
      ],
      [
        "or",
        "dar"
      ],
      [
        "er",
        "cu"
      ],
      [
        "er",
        "ren"
      ],
      [
        "er",
        "gÃŃ"
      ],
      [
        "Ġs",
        "es"
      ],
      [
        "Ġs",
        "in"
      ],
      [
        "Ġs",
        "an"
      ],
      [
        "Ġs",
        "al"
      ],
      [
        "Ġs",
        "at"
      ],
      [
        "Ġs",
        "iete"
      ],
      [
        "Ġs",
        "alada"
      ],
      [
        "Ġs",
        "osten"
      ],
      [
        "Ġs",
        "entir"
      ],
      [
        "es",
        "a"
      ],
      [
        "un",
        "ci"
      ],
      [
        "un",
        "ca"
      ],
      [
        "Ġel",
        "eva"
      ],
      [
        "Ġel",
        "las"
      ],
      [
        "Ġde",
        "be"
      ],
      [
        "Ġde",
        "ba"
      ],
      [
        "ue",
        "vos"
      ],
      [
        "ue",
        "lto"
      ],
      [
        "Ġla",
        "go"
      ],
      [
        "Ġla",
        "va"
      ],
      [
        "Ġla",
        "rgo"
      ],
      [
        "ma",
        "ra"
      ],
      [
        "ma",
        "da"
      ],
      [
        "ma",
        "gen"
      ],
      [
        "ma",
        "ve"
      ],
      [
        "ÃŃ",
        "dos"
      ],
      [
        "ÃŃ",
        "qu"
      ],
      [
        "ÃŃ",
        "ses"
      ],
      [
        "Ġy",
        "achay"
      ],
      [
        "ua",
        "tro"
      ],
      [
        "in",
        "as"
      ],
      [
        "Ġm",
        "is"
      ],
      [
        "Ġm",
        "ira"
      ],
      [
        "Ġt",
        "ran"
      ],
      [
        "Ġt",
        "em"
      ],
      [
        "Ġt",
        "enemos"
      ],
      [
        "Ġt",
        "erren"
      ],
      [
        "Ġh",
        "as"
      ],
      [
        "Ġh",
        "idr"
      ],
      [
        "Ġh",
        "oy"
      ],
      [
        "Ġl",
        "ibe"
      ],
      [
        "Ġl",
        "ÃŃqu"
      ],
      [
        "on",
        "ar"
      ],
      [
        "Ġv",
        "ar"
      ],
      [
        "ar",
        "te"
      ],
      [
        "ar",
        "ia"
      ],
      [
        "as",
        "es"
      ],
      [
        "as",
        "ura"
      ],
      [
        "Ġo",
        "tro"
      ],
      [
        "Ġo",
        "cu"
      ],
      [
        "Ġo",
        "jos"
      ],
      [
        "Ġo",
        "pues"
      ],
      [
        "Ġo",
        "ÃŃdos"
      ],
      [
        "Ġf",
        "ig"
      ],
      [
        "Ġf",
        "luy"
      ],
      [
        "Ġf",
        "unci"
      ],
      [
        "Ġf",
        "ases"
      ],
      [
        "Ġen",
        "tra"
      ],
      [
        "Ġen",
        "vÃŃ"
      ],
      [
        "Ġen",
        "ergÃŃ"
      ],
      [
        "Ġn",
        "at"
      ],
      [
        "Ġn",
        "aran"
      ],
      [
        "Ġn",
        "itr"
      ],
      [
        "Ġn",
        "ubes"
      ],
      [
        "Ġn",
        "unca"
      ],
      [
        "Ġn",
        "uevos"
      ],
      [
        "ci",
        "e"
      ],
      [
        "ci",
        "be"
      ],
      [
        "ci",
        "pa"
      ],
      [
        "ci",
        "al"
      ],
      [
        "ci",
        "ocho"
      ],
      [
        "ol",
        "eta"
      ],
      [
        "ol",
        "ver"
      ],
      [
        "is",
        "ies"
      ],
      [
        "Ġg",
        "otas"
      ],
      [
        "Ġse",
        "an"
      ],
      [
        "Ġse",
        "pa"
      ],
      [
        "Ġse",
        "gÃº"
      ],
      [
        "CuÃ",
        "¡l"
      ],
      [
        "Ġi",
        "di"
      ],
      [
        "Ġi",
        "lu"
      ],
      [
        "Ġi",
        "magen"
      ],
      [
        "Ġpa",
        "ÃŃses"
      ],
      [
        "ch",
        "amos"
      ],
      [
        "Ã±",
        "ol"
      ],
      [
        "Ġal",
        "go"
      ],
      [
        "Ġca",
        "e"
      ],
      [
        "Ġca",
        "da"
      ],
      [
        "Ġsu",
        "fic"
      ],
      [
        "Ġsu",
        "per"
      ],
      [
        "ri",
        "os"
      ],
      [
        "ri",
        "lla"
      ],
      [
        "ri",
        "llo"
      ],
      [
        "ĠS",
        "on"
      ],
      [
        "ĠS",
        "at"
      ],
      [
        "Ġcua",
        "l"
      ],
      [
        "tro",
        "la"
      ],
      [
        "Ã³",
        "xido"
      ],
      [
        "Ġai",
        "mara"
      ],
      [
        "Ġha",
        "cia"
      ],
      [
        "vi",
        "miento"
      ],
      [
        "vi",
        "Ã©n"
      ],
      [
        "vi",
        "esa"
      ],
      [
        "Ġb",
        "eb"
      ],
      [
        "Ġb",
        "al"
      ],
      [
        "Ġb",
        "ran"
      ],
      [
        "Ġb",
        "ola"
      ],
      [
        "Ġb",
        "asura"
      ],
      [
        "Ġb",
        "isies"
      ],
      [
        "Ġb",
        "rilla"
      ],
      [
        "Ġcon",
        "vier"
      ],
      [
        "Ġcon",
        "gelada"
      ],
      [
        "Ġcon",
        "oci"
      ],
      [
        "Ġcon",
        "trola"
      ],
      [
        "Ġve",
        "ces"
      ],
      [
        "Ġin",
        "forma"
      ],
      [
        "Ġin",
        "ter"
      ],
      [
        "Ġin",
        "cl"
      ],
      [
        "Ġin",
        "fin"
      ],
      [
        "Ġlu",
        "ces"
      ],
      [
        "Ġlu",
        "gar"
      ],
      [
        "Ġforma",
        "do"
      ],
      [
        "dos",
        "e"
      ],
      [
        "ic",
        "o"
      ],
      [
        "tr",
        "ucciones"
      ],
      [
        "Ġma",
        "r"
      ],
      [
        "Ġma",
        "sa"
      ],
      [
        "Ġma",
        "gn"
      ],
      [
        "Ġma",
        "nt"
      ],
      [
        "Ġres",
        "olver"
      ],
      [
        "Ġvi",
        "da"
      ],
      [
        "Ġvi",
        "vier"
      ],
      [
        "Ġvi",
        "bra"
      ],
      [
        "Ġvi",
        "vos"
      ],
      [
        "Ġvi",
        "aja"
      ],
      [
        "Ġvi",
        "oleta"
      ],
      [
        "be",
        "a"
      ],
      [
        "Ã©",
        "s"
      ],
      [
        "Ã©",
        "lite"
      ],
      [
        "ĠP",
        "ac"
      ],
      [
        "ĠP",
        "uede"
      ],
      [
        "Ġre",
        "bo"
      ],
      [
        "Ġre",
        "ciclar"
      ],
      [
        "Ġre",
        "don"
      ],
      [
        "Ġre",
        "fl"
      ],
      [
        "Ġre",
        "cibe"
      ],
      [
        "ĠaÃ±",
        "il"
      ],
      [
        "Ġro",
        "ca"
      ],
      [
        "Ġro",
        "jo"
      ],
      [
        "Ġll",
        "ueve"
      ],
      [
        "qu",
        "ias"
      ],
      [
        "ura",
        "l"
      ],
      [
        "ĠL",
        "ima"
      ],
      [
        "Ġcos",
        "ta"
      ],
      [
        "Ġdi",
        "Ã³xido"
      ],
      [
        "Ġpro",
        "gra"
      ],
      [
        "Ġpro",
        "pia"
      ],
      [
        "tan",
        "te"
      ],
      [
        "tan",
        "cia"
      ],
      [
        "ÃŃf",
        "ico"
      ],
      [
        "ÃŃvor",
        "os"
      ],
      [
        "Ġim",
        "por"
      ],
      [
        "ac",
        "tas"
      ],
      [
        "cu",
        "enta"
      ],
      [
        "tic",
        "a"
      ],
      [
        "Ġatra",
        "viesa"
      ],
      [
        "Ġcar",
        "bon"
      ],
      [
        "Ġdos",
        "cien"
      ],
      [
        "Ġdes",
        "de"
      ],
      [
        "Ġdes",
        "can"
      ],
      [
        "Ġdes",
        "puÃ©s"
      ],
      [
        "Ġdes",
        "pla"
      ],
      [
        "Ġsol",
        "o"
      ],
      [
        "ina",
        "dos"
      ],
      [
        "Ġfuer",
        "on"
      ],
      [
        "Ġvein",
        "tis"
      ],
      [
        "Ġobje",
        "to"
      ],
      [
        "mb",
        "iÃ©n"
      ],
      [
        "Ġ5",
        "0"
      ],
      [
        "Ġu",
        "sa"
      ],
      [
        "Ġu",
        "san"
      ],
      [
        "Ġu",
        "bic"
      ],
      [
        "Ġta",
        "mbiÃ©n"
      ],
      [
        "ĠEs",
        "e"
      ],
      [
        "ĠEs",
        "o"
      ],
      [
        "Ġex",
        "tin"
      ],
      [
        "Ġex",
        "pul"
      ],
      [
        "Ġex",
        "actas"
      ],
      [
        "Ġesta",
        "ciÃ³n"
      ],
      [
        "Ġapa",
        "ratos"
      ],
      [
        "Ġcu",
        "bre"
      ],
      [
        "Ġcen",
        "iza"
      ],
      [
        "Ġdis",
        "per"
      ],
      [
        "Ġdis",
        "tin"
      ],
      [
        "Ġdis",
        "uelto"
      ],
      [
        "Ġper",
        "mite"
      ],
      [
        "Ġser",
        "es"
      ],
      [
        "Ġsig",
        "ue"
      ],
      [
        "Ġme",
        "tros"
      ],
      [
        "Ġme",
        "dir"
      ],
      [
        "Ġme",
        "zcla"
      ],
      [
        "Ġhier",
        "ro"
      ],
      [
        "Ġherb",
        "ÃŃvoros"
      ],
      [
        "Ġle",
        "van"
      ],
      [
        "Ġllama",
        "do"
      ],
      [
        "Ġvol",
        "viÃ©n"
      ],
      [
        "Ġnues",
        "tro"
      ],
      [
        "Ġneces",
        "aria"
      ],
      [
        "Ġsus",
        "tancia"
      ],
      [
        "ĠmÃ¡qu",
        "inas"
      ],
      [
        "Ġhabla",
        "da"
      ],
      [
        "Ġins",
        "trucciones"
      ],
      [
        "Ġlleg",
        "a"
      ],
      [
        "Ġlleg",
        "ar"
      ],
      [
        "Ġlleg",
        "an"
      ],
      [
        "Ġproces",
        "a"
      ],
      [
        "Ġcarn",
        "e"
      ],
      [
        "Ġveintic",
        "uatro"
      ],
      [
        "fi",
        "cie"
      ],
      [
        "ver",
        "nos"
      ],
      [
        "ĠM",
        "ercu"
      ],
      [
        "ĠM",
        "arte"
      ],
      [
        "ĠN",
        "os"
      ],
      [
        "ĠN",
        "ep"
      ],
      [
        "rar",
        "la"
      ],
      [
        "Ġmo",
        "vimiento"
      ],
      [
        "Ġmo",
        "vernos"
      ],
      [
        "Ġlengua",
        "s"
      ],
      [
        "Ġbom",
        "ba"
      ],
      [
        "Ġbom",
        "bea"
      ],
      [
        "Ġcontaminar",
        "la"
      ],
      [
        "Ġrec",
        "tos"
      ],
      [
        "Ġrec",
        "ordar"
      ],
      [
        "Ġcalien",
        "ta"
      ],
      [
        "Ġcalien",
        "tan"
      ],
      [
        "Ġ36",
        "5"
      ],
      [
        "Ġ36",
        "6"
      ],
      [
        "Ġ10",
        "0"
      ],
      [
        "Ġoriginar",
        "ia"
      ],
      [
        "Ġoriginar",
        "ias"
      ],
      [
        "Ġdinosau",
        "rio"
      ],
      [
        "Ġdinosau",
        "rios"
      ],
      [
        "Ġmetal",
        "es"
      ],
      [
        "Ġfabri",
        "can"
      ],
      [
        "Ġfabri",
        "car"
      ],
      [
        "CÃ³",
        "mo"
      ],
      [
        "Des",
        "puÃ©s"
      ],
      [
        "Die",
        "z"
      ],
      [
        "Pa",
        "ra"
      ],
      [
        "Re",
        "ciclar"
      ],
      [
        "Se",
        "is"
      ],
      [
        "etis",
        "mo"
      ],
      [
        "len",
        "a"
      ],
      [
        "lmen",
        "te"
      ],
      [
        "mÃ¡",
        "tica"
      ],
      [
        "mina",
        "das"
      ],
      [
        "ofi",
        "la"
      ],
      [
        "pera",
        "tura"
      ],
      [
        "sforma",
        "r"
      ],
      [
        "tun",
        "o"
      ],
      [
        "Ġra",
        "yos"
      ],
      [
        "ĠAn",
        "des"
      ],
      [
        "ĠJÃº",
        "piter"
      ],
      [
        "ĠVen",
        "us"
      ],
      [
        "Ġesen",
        "cial"
      ],
      [
        "Ġespa",
        "Ã±ol"
      ],
      [
        "Ġescu",
        "chamos"
      ],
      [
        "Ġaun",
        "que"
      ],
      [
        "Ġama",
        "rillo"
      ],
      [
        "Ġadul",
        "to"
      ],
      [
        "Ġahor",
        "rarla"
      ],
      [
        "Ġapren",
        "der"
      ],
      [
        "Ġauto",
        "mÃ¡tica"
      ],
      [
        "Ġcor",
        "riente"
      ],
      [
        "Ġcin",
        "cuenta"
      ],
      [
        "ĠcrÃŃ",
        "as"
      ],
      [
        "Ġciu",
        "dad"
      ],
      [
        "Ġclor",
        "ofila"
      ],
      [
        "Ġdon",
        "de"
      ],
      [
        "Ġdie",
        "ciocho"
      ],
      [
        "Ġdul",
        "ce"
      ],
      [
        "Ġdura",
        "nte"
      ],
      [
        "Ġpen",
        "sar"
      ],
      [
        "Ġpes",
        "o"
      ],
      [
        "Ġpas",
        "to"
      ],
      [
        "Ġpri",
        "mave"
      ],
      [
        "Ġpeg",
        "ados"
      ],
      [
        "Ġprin",
        "cipa"
      ],
      [
        "Ġses",
        "enta"
      ],
      [
        "Ġsan",
        "gre"
      ],
      [
        "Ġsal",
        "ir"
      ],
      [
        "Ġsat",
        "Ã©lite"
      ],
      [
        "Ġsosten",
        "er"
      ],
      [
        "Ġeleva",
        "ciÃ³n"
      ],
      [
        "Ġdebe",
        "mos"
      ],
      [
        "Ġdeba",
        "jo"
      ],
      [
        "Ġmis",
        "ma"
      ],
      [
        "Ġtran",
        "sformar"
      ],
      [
        "Ġtem",
        "peratura"
      ],
      [
        "Ġterren",
        "o"
      ],
      [
        "Ġhas",
        "ta"
      ],
      [
        "Ġhidr",
        "Ã³geno"
      ],
      [
        "Ġlibe",
        "rar"
      ],
      [
        "ĠlÃŃqu",
        "ido"
      ],
      [
        "Ġvar",
        "ios"
      ],
      [
        "Ġocu",
        "pa"
      ],
      [
        "Ġopues",
        "ta"
      ],
      [
        "Ġfig",
        "ura"
      ],
      [
        "Ġfluy",
        "e"
      ],
      [
        "Ġfunci",
        "onar"
      ],
      [
        "ĠenvÃŃ",
        "an"
      ],
      [
        "ĠenergÃŃ",
        "a"
      ],
      [
        "Ġnat",
        "ural"
      ],
      [
        "Ġnaran",
        "ja"
      ],
      [
        "Ġnitr",
        "Ã³geno"
      ],
      [
        "Ġsepa",
        "ra"
      ],
      [
        "ĠsegÃº",
        "n"
      ],
      [
        "Ġidi",
        "oma"
      ],
      [
        "Ġilu",
        "minadas"
      ],
      [
        "Ġsufic",
        "iente"
      ],
      [
        "Ġsuper",
        "ficie"
      ],
      [
        "ĠSat",
        "urno"
      ],
      [
        "Ġbeb",
        "Ã©s"
      ],
      [
        "Ġbal",
        "lena"
      ],
      [
        "Ġbran",
        "quias"
      ],
      [
        "Ġbisies",
        "to"
      ],
      [
        "Ġconvier",
        "ten"
      ],
      [
        "Ġconoci",
        "miento"
      ],
      [
        "Ġinforma",
        "ciÃ³n"
      ],
      [
        "Ġinter",
        "ior"
      ],
      [
        "Ġincl",
        "inados"
      ],
      [
        "Ġinfin",
        "ita"
      ],
      [
        "Ġmagn",
        "etismo"
      ],
      [
        "Ġmant",
        "iene"
      ],
      [
        "Ġvivier",
        "on"
      ],
      [
        "Ġvibra",
        "ciÃ³n"
      ],
      [
        "ĠPac",
        "ÃŃfico"
      ],
      [
        "Ġrebo",
        "ta"
      ],
      [
        "Ġredon",
        "do"
      ],
      [
        "Ġrefl",
        "eja"
      ],
      [
        "Ġprogra",
        "mada"
      ],
      [
        "Ġimpor",
        "tante"
      ],
      [
        "Ġcarbon",
        "o"
      ],
      [
        "Ġdoscien",
        "tos"
      ],
      [
        "Ġdescan",
        "sa"
      ],
      [
        "Ġdespla",
        "za"
      ],
      [
        "Ġveintis",
        "iete"
      ],
      [
        "Ġubic",
        "ada"
      ],
      [
        "Ġextin",
        "tos"
      ],
      [
        "Ġexpul",
        "san"
      ],
      [
        "Ġdisper",
        "sa"
      ],
      [
        "Ġdistin",
        "tas"
      ],
      [
        "Ġlevan",
        "ta"
      ],
      [
        "ĠvolviÃ©n",
        "dose"
      ],
      [
        "ĠMercu",
        "rio"
      ],
      [
        "ĠNep",
        "tuno"
      ],
      [
        "Ġprimave",
        "ra"
      ],
      [
        "Ġprincipa",
        "lmente"
      ]
    ]
  }
}